#ifndef SINE_MODEL_H
#define SINE_MODEL_H


unsigned int sine_model_len = 3168;
unsigned char sine_model[] = {
 0x1c, 0x00, 0x00, 0x00, 0x54, 0x46, 0x4c, 0x33, 0x14, 0x00, 0x20, 0x00,
  0x1c, 0x00, 0x18, 0x00, 0x14, 0x00, 0x10, 0x00, 0x0c, 0x00, 0x00, 0x00,
  0x08, 0x00, 0x04, 0x00, 0x14, 0x00, 0x00, 0x00, 0x1c, 0x00, 0x00, 0x00,
  0x98, 0x00, 0x00, 0x00, 0xf0, 0x00, 0x00, 0x00, 0x14, 0x07, 0x00, 0x00,
  0x24, 0x07, 0x00, 0x00, 0x0c, 0x0c, 0x00, 0x00, 0x03, 0x00, 0x00, 0x00,
  0x01, 0x00, 0x00, 0x00, 0x10, 0x00, 0x00, 0x00, 0x00, 0x00, 0x0a, 0x00,
  0x10, 0x00, 0x0c, 0x00, 0x08, 0x00, 0x04, 0x00, 0x0a, 0x00, 0x00, 0x00,
  0x0c, 0x00, 0x00, 0x00, 0x1c, 0x00, 0x00, 0x00, 0x3c, 0x00, 0x00, 0x00,
  0x0f, 0x00, 0x00, 0x00, 0x73, 0x65, 0x72, 0x76, 0x69, 0x6e, 0x67, 0x5f,
  0x64, 0x65, 0x66, 0x61, 0x75, 0x6c, 0x74, 0x00, 0x01, 0x00, 0x00, 0x00,
  0x04, 0x00, 0x00, 0x00, 0x90, 0xff, 0xff, 0xff, 0x09, 0x00, 0x00, 0x00,
  0x04, 0x00, 0x00, 0x00, 0x08, 0x00, 0x00, 0x00, 0x6f, 0x75, 0x74, 0x70,
  0x75, 0x74, 0x5f, 0x30, 0x00, 0x00, 0x00, 0x00, 0x01, 0x00, 0x00, 0x00,
  0x04, 0x00, 0x00, 0x00, 0xba, 0xf9, 0xff, 0xff, 0x04, 0x00, 0x00, 0x00,
  0x0c, 0x00, 0x00, 0x00, 0x6b, 0x65, 0x72, 0x61, 0x73, 0x5f, 0x74, 0x65,
  0x6e, 0x73, 0x6f, 0x72, 0x00, 0x00, 0x00, 0x00, 0x02, 0x00, 0x00, 0x00,
  0x34, 0x00, 0x00, 0x00, 0x04, 0x00, 0x00, 0x00, 0xdc, 0xff, 0xff, 0xff,
  0x0c, 0x00, 0x00, 0x00, 0x04, 0x00, 0x00, 0x00, 0x13, 0x00, 0x00, 0x00,
  0x43, 0x4f, 0x4e, 0x56, 0x45, 0x52, 0x53, 0x49, 0x4f, 0x4e, 0x5f, 0x4d,
  0x45, 0x54, 0x41, 0x44, 0x41, 0x54, 0x41, 0x00, 0x08, 0x00, 0x0c, 0x00,
  0x08, 0x00, 0x04, 0x00, 0x08, 0x00, 0x00, 0x00, 0x0b, 0x00, 0x00, 0x00,
  0x04, 0x00, 0x00, 0x00, 0x13, 0x00, 0x00, 0x00, 0x6d, 0x69, 0x6e, 0x5f,
  0x72, 0x75, 0x6e, 0x74, 0x69, 0x6d, 0x65, 0x5f, 0x76, 0x65, 0x72, 0x73,
  0x69, 0x6f, 0x6e, 0x00, 0x0d, 0x00, 0x00, 0x00, 0x20, 0x06, 0x00, 0x00,
  0x18, 0x06, 0x00, 0x00, 0xc8, 0x05, 0x00, 0x00, 0xb0, 0x01, 0x00, 0x00,
  0x9c, 0x01, 0x00, 0x00, 0x4c, 0x01, 0x00, 0x00, 0xfc, 0x00, 0x00, 0x00,
  0xac, 0x00, 0x00, 0x00, 0xa4, 0x00, 0x00, 0x00, 0x9c, 0x00, 0x00, 0x00,
  0x94, 0x00, 0x00, 0x00, 0x74, 0x00, 0x00, 0x00, 0x04, 0x00, 0x00, 0x00,
  0x6a, 0xfa, 0xff, 0xff, 0x04, 0x00, 0x00, 0x00, 0x60, 0x00, 0x00, 0x00,
  0x0c, 0x00, 0x00, 0x00, 0x08, 0x00, 0x0e, 0x00, 0x08, 0x00, 0x04, 0x00,
  0x08, 0x00, 0x00, 0x00, 0x10, 0x00, 0x00, 0x00, 0x28, 0x00, 0x00, 0x00,
  0x00, 0x00, 0x06, 0x00, 0x08, 0x00, 0x04, 0x00, 0x06, 0x00, 0x00, 0x00,
  0x04, 0x00, 0x00, 0x00, 0x01, 0x00, 0x00, 0x00, 0xea, 0x03, 0x00, 0x00,
  0x0c, 0x00, 0x18, 0x00, 0x14, 0x00, 0x10, 0x00, 0x0c, 0x00, 0x04, 0x00,
  0x0c, 0x00, 0x00, 0x00, 0xec, 0xb7, 0xa8, 0x9a, 0xd0, 0xf4, 0x0a, 0xe3,
  0x02, 0x00, 0x00, 0x00, 0x02, 0x00, 0x00, 0x00, 0x04, 0x00, 0x00, 0x00,
  0x06, 0x00, 0x00, 0x00, 0x32, 0x2e, 0x31, 0x38, 0x2e, 0x30, 0x00, 0x00,
  0xd6, 0xfa, 0xff, 0xff, 0x04, 0x00, 0x00, 0x00, 0x10, 0x00, 0x00, 0x00,
  0x31, 0x2e, 0x35, 0x2e, 0x30, 0x00, 0x00, 0x00, 0x00, 0x00, 0x00, 0x00,
  0x00, 0x00, 0x00, 0x00, 0xd0, 0xf5, 0xff, 0xff, 0xd4, 0xf5, 0xff, 0xff,
  0xd8, 0xf5, 0xff, 0xff, 0xfe, 0xfa, 0xff, 0xff, 0x04, 0x00, 0x00, 0x00,
  0x40, 0x00, 0x00, 0x00, 0xfe, 0xc8, 0x21, 0xbe, 0x00, 0x4b, 0x13, 0x3b,
  0x4e, 0x0b, 0xdd, 0xbe, 0xa2, 0xc5, 0xc8, 0x3e, 0x91, 0x2f, 0x13, 0xbf,
  0x47, 0x43, 0x0c, 0x3f, 0x65, 0xcc, 0x96, 0xbe, 0xaa, 0xeb, 0xe4, 0xbe,
  0xe1, 0x13, 0x05, 0xbf, 0xe0, 0x2f, 0xfa, 0xbd, 0xbf, 0x5c, 0x15, 0x3f,
  0x29, 0xd0, 0xd7, 0x3e, 0x8c, 0xce, 0xd9, 0xbd, 0xa7, 0x86, 0xae, 0xbe,
  0x66, 0x6f, 0x87, 0xbe, 0x67, 0x70, 0xbb, 0x3e, 0x4a, 0xfb, 0xff, 0xff,
  0x04, 0x00, 0x00, 0x00, 0x40, 0x00, 0x00, 0x00, 0x00, 0x00, 0x00, 0x00,
  0x1f, 0x9d, 0x6b, 0xbc, 0x00, 0x00, 0x00, 0x00, 0xd6, 0x30, 0x48, 0x3e,
  0x00, 0x00, 0x00, 0x00, 0xd5, 0xeb, 0x74, 0xbf, 0x00, 0x00, 0x00, 0x00,
  0x00, 0x00, 0x00, 0x00, 0x00, 0x00, 0x00, 0x00, 0x00, 0x00, 0x00, 0x00,
  0x48, 0x2b, 0x30, 0xbf, 0xed, 0x25, 0x1b, 0x3e, 0x00, 0x00, 0x00, 0x00,
  0x00, 0x00, 0x00, 0x00, 0x00, 0x00, 0x00, 0x00, 0xac, 0x3d, 0x61, 0xbf,
  0x96, 0xfb, 0xff, 0xff, 0x04, 0x00, 0x00, 0x00, 0x40, 0x00, 0x00, 0x00,
  0xa7, 0xbc, 0x8c, 0xbc, 0x62, 0x79, 0xa4, 0xbb, 0x64, 0x3c, 0x46, 0xbb,
  0xd6, 0x40, 0xee, 0xbe, 0x00, 0x00, 0x00, 0x00, 0xe2, 0xe3, 0x4b, 0xbb,
  0x00, 0x00, 0x00, 0x00, 0xc2, 0xd5, 0x0a, 0x3e, 0x62, 0x0f, 0x02, 0xbd,
  0xf9, 0xb4, 0x26, 0xbf, 0x00, 0x00, 0x00, 0x00, 0xbf, 0x25, 0x03, 0x3e,
  0x00, 0x00, 0x00, 0x00, 0x83, 0x4c, 0xf8, 0xbe, 0xbb, 0x7c, 0x51, 0x3e,
  0x00, 0x00, 0x00, 0x00, 0xe2, 0xfb, 0xff, 0xff, 0x04, 0x00, 0x00, 0x00,
  0x04, 0x00, 0x00, 0x00, 0x4f, 0xe2, 0x13, 0xbf, 0xf2, 0xfb, 0xff, 0xff,
  0x04, 0x00, 0x00, 0x00, 0x00, 0x04, 0x00, 0x00, 0x99, 0x7d, 0x6b, 0xbe,
  0x5f, 0xd2, 0xa1, 0x3e, 0x81, 0xbc, 0xd3, 0x3e, 0xad, 0xe7, 0xc2, 0x3e,
  0x00, 0x71, 0x32, 0xbb, 0xb9, 0xe2, 0xb2, 0x3e, 0x70, 0xdc, 0xc0, 0xbd,
  0x34, 0xab, 0xf3, 0x3d, 0x32, 0x62, 0x74, 0x3e, 0xc0, 0x71, 0xa1, 0xbc,
  0xff, 0xbe, 0x0b, 0x3e, 0x62, 0x97, 0xe4, 0x3d, 0x7c, 0xc6, 0x96, 0xbd,
  0x80, 0x09, 0xce, 0xbc, 0x9e, 0x51, 0xb9, 0xbe, 0x0e, 0xe9, 0x7b, 0x3d,
  0x90, 0xa3, 0xb4, 0xbe, 0x61, 0x44, 0xa4, 0x3e, 0x40, 0x20, 0x6f, 0xbe,
  0x0f, 0xf0, 0xbe, 0x3d, 0x6c, 0xfe, 0xb3, 0xbe, 0x16, 0x2a, 0xa0, 0xbd,
  0xe4, 0x2d, 0x62, 0xbe, 0xcd, 0xa5, 0xc4, 0x3e, 0xee, 0xc6, 0x04, 0x3e,
  0x2e, 0x42, 0x59, 0xbe, 0xfa, 0x51, 0xac, 0xbe, 0x21, 0x3a, 0xb6, 0xbd,
  0xc0, 0x18, 0x71, 0xbc, 0xba, 0x30, 0x1b, 0x3e, 0x9c, 0x1a, 0xc1, 0x3d,
  0x3a, 0x14, 0xc0, 0x3e, 0xd6, 0xfa, 0xa1, 0xbe, 0x80, 0x08, 0x9e, 0x3b,
  0xfc, 0xad, 0xed, 0x3d, 0x7a, 0x47, 0x43, 0xbe, 0x48, 0x94, 0x0f, 0x3d,
  0xcf, 0x33, 0x0a, 0x3e, 0xa4, 0x07, 0x66, 0xbe, 0x86, 0xa7, 0x40, 0xbe,
  0xe7, 0x52, 0x9d, 0xbe, 0x48, 0xf8, 0x39, 0xbe, 0x8b, 0x2a, 0x64, 0x3e,
  0x3e, 0xc2, 0x92, 0xbe, 0xd9, 0x12, 0x89, 0xbe, 0x80, 0x3c, 0x3e, 0x3c,
  0xe0, 0x27, 0xc6, 0xbc, 0x9f, 0x2a, 0xad, 0xbe, 0x94, 0x38, 0xf4, 0x3d,
  0x0d, 0x5e, 0x6b, 0x3e, 0x58, 0x65, 0xb1, 0xbd, 0x1c, 0x7f, 0x05, 0x3e,
  0x0d, 0x54, 0xa7, 0x3e, 0xfb, 0x29, 0xf6, 0x3e, 0x90, 0x66, 0x13, 0x3d,
  0x6e, 0x9f, 0x26, 0xbe, 0x86, 0x9d, 0x21, 0x3e, 0x1a, 0xff, 0x3d, 0x3e,
  0x92, 0x60, 0xab, 0x3e, 0xa7, 0xc4, 0x83, 0xbc, 0x3e, 0xc2, 0x4c, 0x3e,
  0x59, 0xa9, 0xa0, 0x3e, 0x1d, 0x32, 0x7f, 0xbe, 0x8c, 0xf5, 0xb2, 0x3e,
  0x7f, 0x36, 0xc3, 0x3e, 0xbf, 0x5a, 0xa6, 0x3e, 0xa0, 0x00, 0x21, 0x3d,
  0x10, 0xec, 0x9a, 0xbc, 0x6d, 0xca, 0x8a, 0x3e, 0x53, 0xf6, 0x95, 0x3e,
  0xab, 0xd9, 0x8b, 0x3e, 0x3e, 0x35, 0x49, 0x3e, 0x4a, 0xca, 0x48, 0xbe,
  0xa5, 0x69, 0x85, 0x3e, 0xae, 0x61, 0x0b, 0xbe, 0x7b, 0xa7, 0x89, 0xbe,
  0x54, 0x6b, 0x10, 0xbe, 0x7a, 0x13, 0x45, 0x3e, 0x26, 0x7e, 0x2c, 0x3e,
  0xc0, 0x57, 0xcf, 0xbe, 0x94, 0x9f, 0xc5, 0xbd, 0x1d, 0xca, 0x92, 0xbe,
  0x72, 0xe5, 0x5d, 0xbe, 0x85, 0x56, 0x80, 0x3e, 0xb0, 0x3f, 0x46, 0x3d,
  0xb8, 0xd7, 0xf7, 0xbd, 0x14, 0xba, 0x9e, 0x3d, 0x09, 0x51, 0xd0, 0x3e,
  0x2f, 0x52, 0xd5, 0x3e, 0xbf, 0x41, 0xd4, 0x3e, 0x7e, 0x9c, 0x2e, 0xbe,
  0x41, 0x30, 0x9d, 0xbe, 0x2b, 0x95, 0xa5, 0x3e, 0x22, 0x13, 0x7b, 0xbe,
  0xca, 0x43, 0x27, 0x3e, 0xe0, 0x74, 0x38, 0x3c, 0xb6, 0x23, 0x08, 0x3e,
  0x74, 0xdb, 0x81, 0xbe, 0xd6, 0x46, 0x2b, 0x3e, 0xef, 0x9c, 0x44, 0xbe,
  0xd9, 0x58, 0xa8, 0xbe, 0x84, 0xb0, 0x1f, 0xbe, 0x54, 0x1d, 0xc4, 0xbd,
  0x22, 0x92, 0x1e, 0x3e, 0xaa, 0x04, 0x38, 0x3e, 0xd0, 0xa7, 0xd3, 0xbe,
  0xfa, 0xfb, 0x0d, 0xbe, 0xcf, 0xec, 0x60, 0xbe, 0x50, 0x31, 0x82, 0xbe,
  0x5e, 0x20, 0x6d, 0x3e, 0xd0, 0xaf, 0xb2, 0xbe, 0xb4, 0x80, 0xcf, 0x3d,
  0xbc, 0xa5, 0xa2, 0x3d, 0x58, 0x66, 0x3f, 0xbe, 0x04, 0xf7, 0xd1, 0x3d,
  0x17, 0x50, 0xde, 0xbd, 0xe0, 0xfc, 0x05, 0x3d, 0x72, 0xca, 0xdd, 0xbd,
  0xb9, 0xdf, 0xb1, 0xbe, 0xd8, 0x1f, 0x97, 0xbe, 0x53, 0x5f, 0x88, 0x3e,
  0x0d, 0x59, 0xd4, 0xbe, 0x90, 0x62, 0xe1, 0x3e, 0xf8, 0x25, 0x79, 0x3e,
  0xff, 0x66, 0xa7, 0x3e, 0x29, 0x30, 0xa6, 0xbe, 0x99, 0x7b, 0xbd, 0xbe,
  0xf5, 0x3a, 0xd6, 0xbd, 0x1e, 0x95, 0x5b, 0x3e, 0xb8, 0x85, 0xd7, 0xbd,
  0x2c, 0x9f, 0x9e, 0x3d, 0x80, 0x86, 0x76, 0x3e, 0x01, 0x04, 0xca, 0x3e,
  0x0b, 0xc0, 0xb7, 0xbe, 0x36, 0xf1, 0x4a, 0x3e, 0x6f, 0xad, 0xae, 0x3e,
  0x95, 0x74, 0x9a, 0x3e, 0x38, 0xe3, 0xc4, 0xbe, 0xf2, 0x48, 0x4c, 0xbf,
  0x80, 0x7e, 0xe6, 0x3c, 0x94, 0x96, 0xd8, 0xbd, 0xec, 0x79, 0xd2, 0xbe,
  0xb6, 0x5a, 0x64, 0x3e, 0xfc, 0x77, 0xbb, 0xbd, 0xed, 0x7f, 0x51, 0xbe,
  0xdb, 0xdd, 0xba, 0x3e, 0x56, 0x43, 0x49, 0x3e, 0xd8, 0x2c, 0xd9, 0xbe,
  0xd0, 0xad, 0x99, 0x3c, 0xa3, 0x84, 0x67, 0x3e, 0x82, 0x2c, 0xae, 0xbe,
  0x52, 0xfb, 0xcc, 0xbe, 0x84, 0xc7, 0x80, 0xbe, 0xc0, 0x5a, 0xa2, 0x3c,
  0xab, 0x7b, 0xf3, 0x3e, 0x90, 0x90, 0x22, 0x3d, 0x4d, 0x98, 0xd5, 0x3e,
  0xb5, 0x78, 0xa4, 0xbe, 0x42, 0x7e, 0x76, 0x3e, 0xc4, 0x59, 0x69, 0x3d,
  0xe8, 0xa7, 0xd3, 0xbd, 0x40, 0x3e, 0x88, 0xbe, 0x9f, 0x60, 0xd6, 0x3e,
  0x26, 0xfe, 0x20, 0x3e, 0x29, 0x6b, 0x62, 0xbe, 0xbc, 0xa9, 0xaa, 0xbd,
  0x2a, 0xdb, 0x0f, 0xbe, 0x65, 0x49, 0xc5, 0x3e, 0x5a, 0x60, 0x15, 0xbe,
  0x3f, 0x38, 0x9d, 0x3e, 0x36, 0xdf, 0x79, 0x3e, 0x3c, 0x54, 0xb5, 0xbe,
  0xae, 0xc7, 0x39, 0x3e, 0x90, 0x28, 0xff, 0xbd, 0x6f, 0x1d, 0xc5, 0xbe,
  0x82, 0x7c, 0xcd, 0xbe, 0x44, 0xc9, 0xce, 0xbd, 0x8c, 0x00, 0x70, 0x3d,
  0xac, 0xe6, 0xb2, 0x3d, 0xe3, 0x8f, 0xc2, 0x3e, 0xfa, 0xb6, 0x63, 0x3e,
  0x94, 0xe0, 0xdc, 0x3e, 0x73, 0x1b, 0xa7, 0x3e, 0xca, 0x52, 0x0b, 0x3e,
  0x17, 0x4e, 0x9b, 0x3e, 0xac, 0x20, 0xe0, 0xbd, 0x49, 0xb4, 0x7a, 0x3e,
  0x5f, 0x9f, 0x21, 0xbe, 0x35, 0x62, 0x95, 0x3e, 0xff, 0x32, 0xb7, 0x3e,
  0x66, 0x80, 0x5d, 0x3e, 0xc6, 0x4e, 0x96, 0xbe, 0x18, 0xb9, 0x0a, 0xbd,
  0x83, 0x71, 0x9b, 0x3e, 0xe1, 0xcb, 0xc2, 0x3e, 0xe8, 0xc0, 0xf2, 0xbd,
  0xc8, 0x2c, 0xa2, 0xbe, 0xd4, 0x90, 0xa1, 0xbd, 0x88, 0x74, 0x96, 0xbe,
  0x6d, 0xd3, 0x9a, 0x3e, 0x00, 0x4f, 0xcd, 0x3b, 0xe5, 0x11, 0x9f, 0xbe,
  0x56, 0x27, 0x15, 0x3e, 0x72, 0x49, 0x86, 0xbe, 0x6d, 0xcc, 0xd0, 0xbe,
  0x6a, 0xa2, 0x25, 0xbe, 0x30, 0x25, 0xf0, 0xbc, 0x4a, 0x89, 0x09, 0x3e,
  0x00, 0xcd, 0x86, 0xba, 0x79, 0x09, 0xf2, 0x3d, 0x31, 0x6a, 0xa2, 0xbe,
  0xde, 0x8f, 0xb4, 0x3c, 0x44, 0x02, 0xb1, 0xbe, 0xbb, 0x91, 0xca, 0x3e,
  0xa2, 0xad, 0x3d, 0x3e, 0xb5, 0xd4, 0x5f, 0xbe, 0x15, 0xd9, 0xc6, 0xbe,
  0x64, 0x19, 0xe7, 0x3d, 0xa6, 0xb7, 0x5b, 0xbe, 0x34, 0xb7, 0xf2, 0x3d,
  0xe0, 0x04, 0xec, 0xbc, 0xa0, 0x16, 0x1e, 0x3c, 0x65, 0xe6, 0xb9, 0xbe,
  0x38, 0xb2, 0x9f, 0x3e, 0x3f, 0x9f, 0xb9, 0xbe, 0x98, 0xea, 0x39, 0xbe,
  0xe3, 0x25, 0xca, 0x3e, 0xb5, 0x19, 0xfa, 0x3e, 0x2c, 0xb4, 0xab, 0xbe,
  0x45, 0xe7, 0x30, 0xbf, 0x3b, 0xd1, 0x80, 0x3e, 0x63, 0xb7, 0x80, 0xbe,
  0xbc, 0x6f, 0xdf, 0xbd, 0xa8, 0xb2, 0x3f, 0xbe, 0xc0, 0x42, 0xb5, 0xbe,
  0xe7, 0x75, 0x22, 0x3f, 0xcc, 0x3c, 0xa2, 0x3d, 0x02, 0x50, 0x2f, 0xbe,
  0xee, 0xa8, 0x67, 0x3e, 0x64, 0x5b, 0x8b, 0xbf, 0x08, 0x7c, 0x26, 0xbe,
  0xa7, 0xc3, 0x90, 0x3e, 0x72, 0x6b, 0x4d, 0x3e, 0x7c, 0xdf, 0x6b, 0xbe,
  0xce, 0x91, 0x41, 0x3e, 0x3b, 0x5b, 0x71, 0xbe, 0x9c, 0xda, 0xb4, 0xbe,
  0xbd, 0x80, 0xa5, 0x3e, 0x49, 0x99, 0xd4, 0xbe, 0xca, 0xd6, 0x17, 0xbe,
  0x4e, 0x92, 0x40, 0xbe, 0x51, 0xe7, 0xc9, 0xbe, 0xdd, 0x81, 0x9c, 0x3e,
  0xc0, 0x2c, 0xf6, 0x3b, 0xb4, 0xea, 0x8e, 0xbe, 0x66, 0x04, 0x7f, 0x3e,
  0x00, 0x00, 0x06, 0x00, 0x08, 0x00, 0x04, 0x00, 0x06, 0x00, 0x00, 0x00,
  0x04, 0x00, 0x00, 0x00, 0x40, 0x00, 0x00, 0x00, 0xd7, 0xcf, 0xa4, 0xbe,
  0x74, 0x4f, 0x52, 0xbe, 0x70, 0xf1, 0xa7, 0xbe, 0x1c, 0x2d, 0xe0, 0x3e,
  0xa8, 0x64, 0xea, 0x3d, 0x61, 0x95, 0x0c, 0x3f, 0xa8, 0xbf, 0x00, 0x3e,
  0xd7, 0x92, 0x57, 0xbe, 0x1c, 0xcb, 0x35, 0x3f, 0xe7, 0x23, 0xa3, 0x3f,
  0xf8, 0x75, 0x8c, 0x3e, 0xe6, 0x1d, 0x67, 0xbe, 0x50, 0xb1, 0x84, 0xbd,
  0xcb, 0x0d, 0xf0, 0x3e, 0xb8, 0x89, 0xe6, 0x3f, 0x30, 0x72, 0x5f, 0x3e,
  0x30, 0xfb, 0xff, 0xff, 0x34, 0xfb, 0xff, 0xff, 0x0f, 0x00, 0x00, 0x00,
  0x4d, 0x4c, 0x49, 0x52, 0x20, 0x43, 0x6f, 0x6e, 0x76, 0x65, 0x72, 0x74,
  0x65, 0x64, 0x2e, 0x00, 0x01, 0x00, 0x00, 0x00, 0x14, 0x00, 0x00, 0x00,
  0x00, 0x00, 0x0e, 0x00, 0x18, 0x00, 0x14, 0x00, 0x10, 0x00, 0x0c, 0x00,
  0x08, 0x00, 0x04, 0x00, 0x0e, 0x00, 0x00, 0x00, 0x14, 0x00, 0x00, 0x00,
  0x1c, 0x00, 0x00, 0x00, 0xd8, 0x00, 0x00, 0x00, 0xdc, 0x00, 0x00, 0x00,
  0xe0, 0x00, 0x00, 0x00, 0x04, 0x00, 0x00, 0x00, 0x6d, 0x61, 0x69, 0x6e,
  0x00, 0x00, 0x00, 0x00, 0x03, 0x00, 0x00, 0x00, 0x80, 0x00, 0x00, 0x00,
  0x38, 0x00, 0x00, 0x00, 0x04, 0x00, 0x00, 0x00, 0x9a, 0xff, 0xff, 0xff,
  0x10, 0x00, 0x00, 0x00, 0x00, 0x00, 0x00, 0x08, 0x0c, 0x00, 0x00, 0x00,
  0x10, 0x00, 0x00, 0x00, 0xac, 0xfb, 0xff, 0xff, 0x01, 0x00, 0x00, 0x00,
  0x09, 0x00, 0x00, 0x00, 0x03, 0x00, 0x00, 0x00, 0x08, 0x00, 0x00, 0x00,
  0x01, 0x00, 0x00, 0x00, 0x03, 0x00, 0x00, 0x00, 0xca, 0xff, 0xff, 0xff,
  0x10, 0x00, 0x00, 0x00, 0x00, 0x00, 0x00, 0x08, 0x10, 0x00, 0x00, 0x00,
  0x14, 0x00, 0x00, 0x00, 0xba, 0xff, 0xff, 0xff, 0x00, 0x00, 0x00, 0x01,
  0x01, 0x00, 0x00, 0x00, 0x08, 0x00, 0x00, 0x00, 0x03, 0x00, 0x00, 0x00,
  0x07, 0x00, 0x00, 0x00, 0x02, 0x00, 0x00, 0x00, 0x04, 0x00, 0x00, 0x00,
  0x00, 0x00, 0x0e, 0x00, 0x16, 0x00, 0x00, 0x00, 0x10, 0x00, 0x0c, 0x00,
  0x0b, 0x00, 0x04, 0x00, 0x0e, 0x00, 0x00, 0x00, 0x18, 0x00, 0x00, 0x00,
  0x00, 0x00, 0x00, 0x08, 0x18, 0x00, 0x00, 0x00, 0x1c, 0x00, 0x00, 0x00,
  0x00, 0x00, 0x06, 0x00, 0x08, 0x00, 0x07, 0x00, 0x06, 0x00, 0x00, 0x00,
  0x00, 0x00, 0x00, 0x01, 0x01, 0x00, 0x00, 0x00, 0x07, 0x00, 0x00, 0x00,
  0x03, 0x00, 0x00, 0x00, 0x00, 0x00, 0x00, 0x00, 0x06, 0x00, 0x00, 0x00,
  0x05, 0x00, 0x00, 0x00, 0x01, 0x00, 0x00, 0x00, 0x09, 0x00, 0x00, 0x00,
  0x01, 0x00, 0x00, 0x00, 0x00, 0x00, 0x00, 0x00, 0x0a, 0x00, 0x00, 0x00,
  0x7c, 0x03, 0x00, 0x00, 0x24, 0x03, 0x00, 0x00, 0xcc, 0x02, 0x00, 0x00,
  0x90, 0x02, 0x00, 0x00, 0x34, 0x02, 0x00, 0x00, 0xdc, 0x01, 0x00, 0x00,
  0x90, 0x01, 0x00, 0x00, 0xfc, 0x00, 0x00, 0x00, 0x60, 0x00, 0x00, 0x00,
  0x04, 0x00, 0x00, 0x00, 0xc2, 0xfc, 0xff, 0xff, 0x00, 0x00, 0x00, 0x01,
  0x14, 0x00, 0x00, 0x00, 0x1c, 0x00, 0x00, 0x00, 0x1c, 0x00, 0x00, 0x00,
  0x0a, 0x00, 0x00, 0x00, 0x34, 0x00, 0x00, 0x00, 0x02, 0x00, 0x00, 0x00,
  0xff, 0xff, 0xff, 0xff, 0x01, 0x00, 0x00, 0x00, 0xac, 0xfc, 0xff, 0xff,
  0x1b, 0x00, 0x00, 0x00, 0x53, 0x74, 0x61, 0x74, 0x65, 0x66, 0x75, 0x6c,
  0x50, 0x61, 0x72, 0x74, 0x69, 0x74, 0x69, 0x6f, 0x6e, 0x65, 0x64, 0x43,
  0x61, 0x6c, 0x6c, 0x5f, 0x31, 0x3a, 0x30, 0x00, 0x02, 0x00, 0x00, 0x00,
  0x01, 0x00, 0x00, 0x00, 0x01, 0x00, 0x00, 0x00, 0x1a, 0xfd, 0xff, 0xff,
  0x00, 0x00, 0x00, 0x01, 0x14, 0x00, 0x00, 0x00, 0x1c, 0x00, 0x00, 0x00,
  0x1c, 0x00, 0x00, 0x00, 0x09, 0x00, 0x00, 0x00, 0x74, 0x00, 0x00, 0x00,
  0x02, 0x00, 0x00, 0x00, 0xff, 0xff, 0xff, 0xff, 0x10, 0x00, 0x00, 0x00,
  0x04, 0xfd, 0xff, 0xff, 0x58, 0x00, 0x00, 0x00, 0x73, 0x65, 0x71, 0x75,
  0x65, 0x6e, 0x74, 0x69, 0x61, 0x6c, 0x5f, 0x31, 0x2f, 0x64, 0x65, 0x6e,
  0x73, 0x65, 0x5f, 0x31, 0x5f, 0x32, 0x2f, 0x4d, 0x61, 0x74, 0x4d, 0x75,
  0x6c, 0x3b, 0x73, 0x65, 0x71, 0x75, 0x65, 0x6e, 0x74, 0x69, 0x61, 0x6c,
  0x5f, 0x31, 0x2f, 0x64, 0x65, 0x6e, 0x73, 0x65, 0x5f, 0x31, 0x5f, 0x32,
  0x2f, 0x52, 0x65, 0x6c, 0x75, 0x3b, 0x73, 0x65, 0x71, 0x75, 0x65, 0x6e,
  0x74, 0x69, 0x61, 0x6c, 0x5f, 0x31, 0x2f, 0x64, 0x65, 0x6e, 0x73, 0x65,
  0x5f, 0x31, 0x5f, 0x32, 0x2f, 0x42, 0x69, 0x61, 0x73, 0x41, 0x64, 0x64,
  0x00, 0x00, 0x00, 0x00, 0x02, 0x00, 0x00, 0x00, 0x01, 0x00, 0x00, 0x00,
  0x10, 0x00, 0x00, 0x00, 0xb2, 0xfd, 0xff, 0xff, 0x00, 0x00, 0x00, 0x01,
  0x14, 0x00, 0x00, 0x00, 0x1c, 0x00, 0x00, 0x00, 0x1c, 0x00, 0x00, 0x00,
  0x08, 0x00, 0x00, 0x00, 0x6c, 0x00, 0x00, 0x00, 0x02, 0x00, 0x00, 0x00,
  0xff, 0xff, 0xff, 0xff, 0x10, 0x00, 0x00, 0x00, 0x9c, 0xfd, 0xff, 0xff,
  0x52, 0x00, 0x00, 0x00, 0x73, 0x65, 0x71, 0x75, 0x65, 0x6e, 0x74, 0x69,
  0x61, 0x6c, 0x5f, 0x31, 0x2f, 0x64, 0x65, 0x6e, 0x73, 0x65, 0x5f, 0x31,
  0x2f, 0x4d, 0x61, 0x74, 0x4d, 0x75, 0x6c, 0x3b, 0x73, 0x65, 0x71, 0x75,
  0x65, 0x6e, 0x74, 0x69, 0x61, 0x6c, 0x5f, 0x31, 0x2f, 0x64, 0x65, 0x6e,
  0x73, 0x65, 0x5f, 0x31, 0x2f, 0x52, 0x65, 0x6c, 0x75, 0x3b, 0x73, 0x65,
  0x71, 0x75, 0x65, 0x6e, 0x74, 0x69, 0x61, 0x6c, 0x5f, 0x31, 0x2f, 0x64,
  0x65, 0x6e, 0x73, 0x65, 0x5f, 0x31, 0x2f, 0x42, 0x69, 0x61, 0x73, 0x41,
  0x64, 0x64, 0x00, 0x00, 0x02, 0x00, 0x00, 0x00, 0x01, 0x00, 0x00, 0x00,
  0x10, 0x00, 0x00, 0x00, 0x96, 0xfe, 0xff, 0xff, 0x00, 0x00, 0x00, 0x01,
  0x10, 0x00, 0x00, 0x00, 0x10, 0x00, 0x00, 0x00, 0x07, 0x00, 0x00, 0x00,
  0x28, 0x00, 0x00, 0x00, 0x1c, 0xfe, 0xff, 0xff, 0x1b, 0x00, 0x00, 0x00,
  0x73, 0x65, 0x71, 0x75, 0x65, 0x6e, 0x74, 0x69, 0x61, 0x6c, 0x5f, 0x31,
  0x2f, 0x64, 0x65, 0x6e, 0x73, 0x65, 0x5f, 0x31, 0x2f, 0x4d, 0x61, 0x74,
  0x4d, 0x75, 0x6c, 0x00, 0x02, 0x00, 0x00, 0x00, 0x10, 0x00, 0x00, 0x00,
  0x01, 0x00, 0x00, 0x00, 0xde, 0xfe, 0xff, 0xff, 0x00, 0x00, 0x00, 0x01,
  0x10, 0x00, 0x00, 0x00, 0x10, 0x00, 0x00, 0x00, 0x06, 0x00, 0x00, 0x00,
  0x38, 0x00, 0x00, 0x00, 0x64, 0xfe, 0xff, 0xff, 0x2b, 0x00, 0x00, 0x00,
  0x73, 0x65, 0x71, 0x75, 0x65, 0x6e, 0x74, 0x69, 0x61, 0x6c, 0x5f, 0x31,
  0x2f, 0x64, 0x65, 0x6e, 0x73, 0x65, 0x5f, 0x31, 0x2f, 0x42, 0x69, 0x61,
  0x73, 0x41, 0x64, 0x64, 0x2f, 0x52, 0x65, 0x61, 0x64, 0x56, 0x61, 0x72,
  0x69, 0x61, 0x62, 0x6c, 0x65, 0x4f, 0x70, 0x00, 0x01, 0x00, 0x00, 0x00,
  0x10, 0x00, 0x00, 0x00, 0x32, 0xff, 0xff, 0xff, 0x00, 0x00, 0x00, 0x01,
  0x10, 0x00, 0x00, 0x00, 0x10, 0x00, 0x00, 0x00, 0x05, 0x00, 0x00, 0x00,
  0x3c, 0x00, 0x00, 0x00, 0xb8, 0xfe, 0xff, 0xff, 0x2d, 0x00, 0x00, 0x00,
  0x73, 0x65, 0x71, 0x75, 0x65, 0x6e, 0x74, 0x69, 0x61, 0x6c, 0x5f, 0x31,
  0x2f, 0x64, 0x65, 0x6e, 0x73, 0x65, 0x5f, 0x31, 0x5f, 0x32, 0x2f, 0x42,
  0x69, 0x61, 0x73, 0x41, 0x64, 0x64, 0x2f, 0x52, 0x65, 0x61, 0x64, 0x56,
  0x61, 0x72, 0x69, 0x61, 0x62, 0x6c, 0x65, 0x4f, 0x70, 0x00, 0x00, 0x00,
  0x01, 0x00, 0x00, 0x00, 0x10, 0x00, 0x00, 0x00, 0x8a, 0xff, 0xff, 0xff,
  0x00, 0x00, 0x00, 0x01, 0x10, 0x00, 0x00, 0x00, 0x10, 0x00, 0x00, 0x00,
  0x04, 0x00, 0x00, 0x00, 0x1c, 0x00, 0x00, 0x00, 0x10, 0xff, 0xff, 0xff,
  0x0f, 0x00, 0x00, 0x00, 0x61, 0x72, 0x69, 0x74, 0x68, 0x2e, 0x63, 0x6f,
  0x6e, 0x73, 0x74, 0x61, 0x6e, 0x74, 0x32, 0x00, 0x01, 0x00, 0x00, 0x00,
  0x01, 0x00, 0x00, 0x00, 0xc2, 0xff, 0xff, 0xff, 0x00, 0x00, 0x00, 0x01,
  0x10, 0x00, 0x00, 0x00, 0x10, 0x00, 0x00, 0x00, 0x03, 0x00, 0x00, 0x00,
  0x1c, 0x00, 0x00, 0x00, 0x48, 0xff, 0xff, 0xff, 0x0f, 0x00, 0x00, 0x00,
  0x61, 0x72, 0x69, 0x74, 0x68, 0x2e, 0x63, 0x6f, 0x6e, 0x73, 0x74, 0x61,
  0x6e, 0x74, 0x31, 0x00, 0x02, 0x00, 0x00, 0x00, 0x10, 0x00, 0x00, 0x00,
  0x10, 0x00, 0x00, 0x00, 0x00, 0x00, 0x16, 0x00, 0x18, 0x00, 0x14, 0x00,
  0x00, 0x00, 0x10, 0x00, 0x0c, 0x00, 0x08, 0x00, 0x00, 0x00, 0x00, 0x00,
  0x00, 0x00, 0x07, 0x00, 0x16, 0x00, 0x00, 0x00, 0x00, 0x00, 0x00, 0x01,
  0x10, 0x00, 0x00, 0x00, 0x10, 0x00, 0x00, 0x00, 0x02, 0x00, 0x00, 0x00,
  0x1c, 0x00, 0x00, 0x00, 0x9c, 0xff, 0xff, 0xff, 0x0e, 0x00, 0x00, 0x00,
  0x61, 0x72, 0x69, 0x74, 0x68, 0x2e, 0x63, 0x6f, 0x6e, 0x73, 0x74, 0x61,
  0x6e, 0x74, 0x00, 0x00, 0x02, 0x00, 0x00, 0x00, 0x01, 0x00, 0x00, 0x00,
  0x10, 0x00, 0x00, 0x00, 0x00, 0x00, 0x16, 0x00, 0x1c, 0x00, 0x18, 0x00,
  0x00, 0x00, 0x14, 0x00, 0x10, 0x00, 0x0c, 0x00, 0x00, 0x00, 0x00, 0x00,
  0x08, 0x00, 0x07, 0x00, 0x16, 0x00, 0x00, 0x00, 0x00, 0x00, 0x00, 0x01,
  0x14, 0x00, 0x00, 0x00, 0x20, 0x00, 0x00, 0x00, 0x20, 0x00, 0x00, 0x00,
  0x01, 0x00, 0x00, 0x00, 0x3c, 0x00, 0x00, 0x00, 0x02, 0x00, 0x00, 0x00,
  0xff, 0xff, 0xff, 0xff, 0x01, 0x00, 0x00, 0x00, 0x04, 0x00, 0x04, 0x00,
  0x04, 0x00, 0x00, 0x00, 0x1e, 0x00, 0x00, 0x00, 0x73, 0x65, 0x72, 0x76,
  0x69, 0x6e, 0x67, 0x5f, 0x64, 0x65, 0x66, 0x61, 0x75, 0x6c, 0x74, 0x5f,
  0x6b, 0x65, 0x72, 0x61, 0x73, 0x5f, 0x74, 0x65, 0x6e, 0x73, 0x6f, 0x72,
  0x3a, 0x30, 0x00, 0x00, 0x02, 0x00, 0x00, 0x00, 0x01, 0x00, 0x00, 0x00,
  0x01, 0x00, 0x00, 0x00, 0x01, 0x00, 0x00, 0x00, 0x10, 0x00, 0x00, 0x00,
  0x0c, 0x00, 0x0c, 0x00, 0x0b, 0x00, 0x00, 0x00, 0x00, 0x00, 0x04, 0x00,
  0x0c, 0x00, 0x00, 0x00, 0x09, 0x00, 0x00, 0x00, 0x00, 0x00, 0x00, 0x09
 
};

#endif //SINE_MODEL_H