#ifndef IMU_MODEL_H
#define IMU_MODEL_H

const unsigned char imu_model_tflite[] = {
0x1c,0x00,0x00,0x00,0x54,0x46,0x4c,0x33,0x14,0x00,0x20,0x00,0x1c,0x00,0x18,0x00,0x14,0x00,0x10,0x00,0x0c,0x00,0x00,0x00,0x08,0x00,0x04,0x00,0x14,0x00,0x00,0x00,0x1c,0x00,0x00,0x00,0x98,0x00,0x00,0x00,0xf0,0x00,0x00,0x00,0x20,0x08,0x00,0x00,0x30,0x08,0x00,0x00,0x30,0x0e,0x00,0x00,0x03,0x00,0x00,0x00,0x01,0x00,0x00,0x00,0x10,0x00,0x00,0x00,0x00,0x00,0x0a,0x00,0x10,0x00,0x0c,0x00,0x08,0x00,0x04,0x00,0x0a,0x00,0x00,0x00,0x0c,0x00,0x00,0x00,0x1c,0x00,0x00,0x00,0x3c,0x00,0x00,0x00,0x0f,0x00,0x00,0x00,0x73,0x65,0x72,0x76,0x69,0x6e,0x67,0x5f,0x64,0x65,0x66,0x61,0x75,0x6c,0x74,0x00,0x01,0x00,0x00,0x00,0x04,0x00,0x00,0x00,0x90,0xff,0xff,0xff,0x0a,0x00,0x00,0x00,0x04,0x00,0x00,0x00,0x08,0x00,0x00,0x00,0x6f,0x75,0x74,0x70,0x75,0x74,0x5f,0x30,0x00,0x00,0x00,0x00,0x01,0x00,0x00,0x00,0x04,0x00,0x00,0x00,0xc6,0xf7,0xff,0xff,0x04,0x00,0x00,0x00,0x0f,0x00,0x00,0x00,0x6b,0x65,0x72,0x61,0x73,0x5f,0x74,0x65,0x6e,0x73,0x6f,0x72,0x5f,0x31,0x32,0x00,0x02,0x00,0x00,0x00,0x34,0x00,0x00,0x00,0x04,0x00,0x00,0x00,0xdc,0xff,0xff,0xff,0x0d,0x00,0x00,0x00,0x04,0x00,0x00,0x00,0x13,0x00,0x00,0x00,0x43,0x4f,0x4e,0x56,0x45,0x52,0x53,0x49,0x4f,0x4e,0x5f,0x4d,0x45,0x54,0x41,0x44,0x41,0x54,0x41,0x00,0x08,0x00,0x0c,0x00,0x08,0x00,0x04,0x00,0x08,0x00,0x00,0x00,0x0c,0x00,0x00,0x00,0x04,0x00,0x00,0x00,0x13,0x00,0x00,0x00,0x6d,0x69,0x6e,0x5f,0x72,0x75,0x6e,0x74,0x69,0x6d,0x65,0x5f,0x76,0x65,0x72,0x73,0x69,0x6f,0x6e,0x00,0x0e,0x00,0x00,0x00,0x2c,0x07,0x00,0x00,0x24,0x07,0x00,0x00,0x14,0x06,0x00,0x00,0x04,0x02,0x00,0x00,0xb4,0x01,0x00,0x00,0x94,0x01,0x00,0x00,0x44,0x01,0x00,0x00,0xb4,0x00,0x00,0x00,0xac,0x00,0x00,0x00,0xa4,0x00,0x00,0x00,0x9c,0x00,0x00,0x00,0x94,0x00,0x00,0x00,0x74,0x00,0x00,0x00,0x04,0x00,0x00,0x00,0x7a,0xf8,0xff,0xff,0x04,0x00,0x00,0x00,0x60,0x00,0x00,0x00,0x10,0x00,0x00,0x00,0x00,0x00,0x00,0x00,0x08,0x00,0x0e,0x00,0x08,0x00,0x04,0x00,0x08,0x00,0x00,0x00,0x10,0x00,0x00,0x00,0x24,0x00,0x00,0x00,0x00,0x00,0x06,0x00,0x08,0x00,0x04,0x00,0x06,0x00,0x00,0x00,0x04,0x00,0x00,0x00,0x00,0x00,0x00,0x00,0x0c,0x00,0x18,0x00,0x14,0x00,0x10,0x00,0x0c,0x00,0x04,0x00,0x0c,0x00,0x00,0x00,0x9e,0x00,0x7d,0xf8,0x01,0xe9,0xc5,0x29,0x02,0x00,0x00,0x00,0x02,0x00,0x00,0x00,0x04,0x00,0x00,0x00,0x06,0x00,0x00,0x00,0x32,0x2e,0x31,0x38,0x2e,0x30,0x00,0x00,0xe6,0xf8,0xff,0xff,0x04,0x00,0x00,0x00,0x10,0x00,0x00,0x00,0x31,0x2e,0x35,0x2e,0x30,0x00,0x00,0x00,0x00,0x00,0x00,0x00,0x00,0x00,0x00,0x00,0xb4,0xf3,0xff,0xff,0xb8,0xf3,0xff,0xff,0xbc,0xf3,0xff,0xff,0xc0,0xf3,0xff,0xff,0x12,0xf9,0xff,0xff,0x04,0x00,0x00,0x00,0x80,0x00,0x00,0x00,0x13,0x0e,0x97,0xbe,0x26,0xb2,0x80,0x3e,0x05,0x79,0x97,0x3e,0x6b,0x8e,0x16,0x3e,0xb6,0xa2,0x09,0xbe,0x77,0x4f,0xc2,0x3e,0x17,0xc6,0x09,0xbf,0xab,0xad,0x16,0x3f,0x60,0xc2,0xeb,0x3e,0x6e,0x33,0xef,0x3d,0xc8,0x79,0x46,0xbe,0x50,0xa7,0xc2,0xbd,0x68,0xdd,0x8f,0xbe,0xd4,0x18,0x1e,0xbe,0x89,0x11,0x19,0x3f,0xbc,0xa7,0x96,0x3e,0xe0,0xf0,0xdf,0xbc,0xfa,0x74,0x53,0xbe,0x39,0x76,0xd9,0x3e,0x93,0xc0,0x61,0xbe,0x08,0x6d,0x49,0xbe,0x0c,0x12,0xa6,0xbd,0x15,0xf4,0x0a,0xbf,0xc0,0x8d,0xe3,0x3c,0x05,0xa6,0xdd,0x3e,0x5f,0x2a,0x01,0xbf,0x56,0xdf,0xd3,0x3c,0x4d,0xc5,0xe6,0x3e,0x44,0x58,0x9a,0xbe,0x30,0x40,0xd7,0x3d,0x91,0xa1,0x99,0x3e,0x19,0x25,0xd6,0x3e,0x9e,0xf9,0xff,0xff,0x04,0x00,0x00,0x00,0x40,0x00,0x00,0x00,0x00,0x00,0x00,0x00,0xbb,0x79,0x2b,0xbc,0xf9,0x52,0xb7,0x3d,0xcb,0xd6,0x60,0x3e,0xac,0xc0,0xcf,0xbd,0x00,0x00,0x00,0x00,0x00,0x00,0x00,0x00,0x36,0xff,0x17,0xbd,0x00,0x00,0x00,0x00,0xf7,0xed,0x4e,0xbb,0x00,0x00,0x00,0x00,0x00,0x00,0x00,0x00,0xe6,0xcf,0xef,0xbc,0xff,0x4b,0x67,0xbd,0x00,0x00,0x00,0x00,0x92,0x57,0x17,0xbd,0xea,0xf9,0xff,0xff,0x04,0x00,0x00,0x00,0x10,0x00,0x00,0x00,0xe9,0x1c,0xa8,0xbd,0x45,0xad,0xc5,0x3d,0xff,0xdd,0x29,0x3b,0x5b,0xf9,0x45,0x3d,0x06,0xfa,0xff,0xff,0x04,0x00,0x00,0x00,0x40,0x00,0x00,0x00,0x8b,0x3b,0x06,0xbe,0x6d,0x87,0x87,0x3d,0x73,0x6e,0x83,0xbc,0x00,0x00,0x00,0x00,0xb7,0xc5,0x82,0x3c,0xec,0xf0,0xf9,0xbd,0x00,0x00,0x00,0x00,0x30,0x20,0x3e,0x3d,0x81,0xec,0x00,0x3e,0x7e,0xd0,0x8e,0xbd,0x00,0x00,0x00,0x00,0x00,0x00,0x00,0x00,0x00,0x00,0x00,0x00,0x00,0x00,0x00,0x00,0x00,0x00,0x00,0x00,0x90,0x4c,0x9d,0x3c,0x52,0xfa,0xff,0xff,0x04,0x00,0x00,0x00,0x00,0x04,0x00,0x00,0x27,0xdb,0x4e,0xbe,0x22,0xb1,0xa0,0x3e,0x5b,0xeb,0x93,0xbe,0x09,0x04,0x00,0xbf,0x34,0xbe,0x8b,0x3e,0x00,0x85,0x76,0x3b,0x00,0xc1,0x80,0x3b,0x15,0xdc,0x84,0xbe,0x7e,0x2e,0xad,0xbe,0x59,0x86,0xab,0x3e,0x35,0x5e,0xae,0x3e,0x1d,0x98,0xdd,0x3e,0x81,0x5a,0x3e,0x3d,0xbd,0xcb,0x9c,0x3e,0x6f,0x04,0xa5,0x3e,0xff,0x07,0x9d,0xbe,0x5f,0x41,0x8c,0xbe,0xfc,0x0f,0xbb,0x3e,0x9f,0xef,0x6a,0x3e,0x1e,0xeb,0x88,0x3c,0xb2,0xd5,0xbe,0x3d,0xbd,0x68,0xc3,0x3e,0xee,0xd0,0xc5,0xbe,0x79,0x2b,0x0a,0x3e,0x80,0xe6,0x79,0xbd,0xaf,0xfc,0x0f,0x3e,0xf1,0xcf,0xbd,0xbe,0xa3,0x6f,0x84,0x3e,0x7f,0xa9,0x13,0x3e,0x2c,0x6b,0x39,0xbe,0x26,0x57,0xd0,0xbe,0x3b,0x7d,0x0c,0xbd,0x6d,0x2b,0x9c,0x3e,0x42,0x74,0xba,0x3e,0x3b,0x9a,0x88,0x3e,0x56,0x50,0x37,0xbe,0x1c,0x97,0x85,0x3e,0x30,0x64,0xdb,0xbd,0x33,0x15,0xd9,0x3e,0x0b,0x5c,0x59,0xbe,0xdf,0xfc,0xb4,0xbe,0x16,0xe2,0x27,0x3c,0xca,0x72,0xc5,0xbe,0x20,0x51,0x17,0xbe,0xc0,0xbb,0x86,0x3e,0x03,0xac,0xc7,0x3e,0xe8,0xab,0x23,0xbe,0xcd,0x99,0xc6,0x3e,0x2f,0xf9,0xc0,0x3e,0x8b,0xfd,0xcf,0xbe,0xa0,0x21,0xbc,0xbc,0x31,0x3d,0xcd,0xbe,0x4f,0xbb,0xb1,0xbe,0x8a,0xef,0x08,0x3e,0x00,0xa7,0xb1,0xbe,0xaf,0x8c,0xaf,0xbe,0x14,0x9e,0xf1,0x3d,0xe5,0x75,0x86,0x3e,0xc0,0x5b,0xa0,0xbc,0x26,0xb5,0x07,0xbe,0x13,0x06,0xb3,0x3e,0xfb,0x2f,0xa5,0x3e,0xb7,0x5d,0xbc,0x3e,0x41,0xda,0xcd,0xbe,0x36,0xc7,0x5e,0x3e,0x5c,0xc0,0x52,0x3c,0x95,0xdb,0x72,0xbe,0x8b,0xb1,0x00,0x3f,0xb7,0x79,0x9c,0x3e,0xa0,0xe6,0x9e,0xbd,0x5a,0x62,0x15,0x3e,0x60,0x4f,0x53,0x3e,0x08,0xe6,0x9f,0xbe,0xb8,0x2f,0x9f,0x3e,0x23,0xa2,0xcf,0x3e,0xc2,0xfb,0xb8,0xbe,0x23,0x1d,0x5c,0xbd,0xe2,0x73,0xb2,0x3e,0x0d,0x09,0x4c,0xbe,0xbf,0xa0,0x09,0x3d,0x1a,0x4a,0x6b,0x3e,0xaa,0xfa,0x94,0xbe,0x46,0xf2,0xae,0x3c,0x49,0x77,0x1a,0xbe,0x78,0xef,0xf5,0x3d,0x96,0x61,0x2a,0x3e,0xca,0x57,0x16,0xbe,0xaf,0x44,0x93,0x3e,0xee,0xc7,0xc2,0xbe,0x27,0x42,0x89,0xbe,0x42,0x25,0x06,0x3e,0xd7,0x5f,0x59,0xbe,0x26,0x41,0x9b,0xbc,0x53,0xdd,0xb7,0xbd,0x30,0x6f,0x2e,0x3d,0xe1,0x51,0xc1,0x3e,0x3c,0x5b,0xf7,0x3d,0x28,0xe0,0xd3,0xbe,0x96,0x64,0x58,0xbe,0x12,0xad,0x20,0xbe,0xe3,0xcc,0x83,0x3e,0xb3,0xe0,0x3e,0xbe,0x80,0xe4,0x89,0xbd,0x4f,0x48,0xc9,0xbe,0xfc,0xac,0x8d,0xbd,0xf0,0x01,0x50,0x3d,0x46,0xbf,0x9f,0xbe,0x20,0x52,0xbe,0x3c,0x14,0x30,0xbd,0xbe,0x00,0x91,0x66,0x3b,0x9c,0x4c,0xce,0xbe,0x06,0x18,0x7b,0x3e,0xc4,0xe3,0xe4,0x3d,0xd2,0x8f,0xed,0x3d,0x2f,0x3b,0xc9,0x3e,0xc3,0x7c,0x9b,0x3c,0x0b,0x67,0x33,0x3d,0x8a,0x79,0x17,0x3e,0x1a,0xc6,0x13,0x3e,0x47,0xd3,0x4d,0xbe,0x57,0x0b,0xc8,0x3e,0x4c,0x02,0x44,0xbe,0x6a,0xd6,0x11,0x3e,0xea,0xb0,0xd5,0xbe,0x03,0x8d,0x9b,0xbe,0x23,0xc4,0x07,0x3e,0x12,0x76,0x37,0xbe,0x7e,0x58,0xcf,0x3d,0xe0,0x7c,0x36,0xbc,0x17,0x0a,0x78,0xbe,0x00,0xdf,0xdd,0x3e,0x4b,0x4d,0xad,0x3e,0xce,0x9d,0x73,0x3e,0x4a,0x35,0x39,0x3e,0x48,0x8d,0xa5,0xbe,0xcb,0xe6,0xc1,0xbe,0x72,0xeb,0x1d,0x3e,0x11,0xa0,0x78,0x3d,0x44,0x44,0x88,0xbd,0x50,0x1f,0xaa,0x3c,0xf7,0x50,0xaf,0x3e,0xaa,0x36,0x84,0x3e,0xa2,0x12,0x32,0xbe,0x38,0x24,0x09,0x3e,0x19,0x7a,0xac,0x3e,0x05,0x29,0xa4,0xbe,0x77,0x4c,0xd0,0xbd,0x73,0x2d,0xee,0xbe,0xb8,0xfb,0xe8,0x3d,0x0d,0x54,0x88,0x3e,0x1f,0x06,0x77,0xbe,0x98,0xc3,0x06,0x3e,0x6a,0xeb,0x6c,0x3e,0xe5,0x6b,0x4a,0xbe,0x17,0xf0,0xc7,0xbe,0x42,0xd1,0x6d,0x3e,0x48,0x42,0xa2,0x3e,0x3d,0xca,0x90,0x3e,0xd6,0x7f,0xa4,0xbe,0x55,0x25,0x34,0x3c,0xf3,0x91,0x5e,0xbe,0xfc,0xe5,0xdc,0xbe,0x7a,0x0b,0x91,0xbe,0xf8,0x3e,0xa7,0xbe,0xa6,0xb9,0xc1,0xbe,0xf1,0x68,0x79,0xbe,0x20,0x6c,0x71,0xbd,0x84,0x0f,0xc0,0x3d,0x19,0x1e,0x97,0x3e,0x00,0xb4,0x03,0x3b,0x21,0xda,0x9e,0x3e,0xa7,0xc5,0xc9,0x3e,0x7e,0xd8,0xab,0xbe,0x1b,0x8a,0xbb,0x3e,0x3a,0x0b,0xba,0xbe,0x08,0x2d,0xa7,0xbd,0x80,0xf8,0x0d,0xbc,0x3c,0x92,0x91,0xbe,0x50,0x8b,0x55,0xbe,0xa2,0x66,0x3b,0x3e,0xe8,0x69,0x0c,0x3d,0x56,0x03,0x6d,0x3e,0x50,0xa5,0x9d,0xbe,0xdc,0x0e,0xb8,0xbe,0x95,0x18,0xaa,0x3e,0xee,0xa1,0xb7,0xbe,0x16,0x4a,0x3c,0x3e,0x42,0x32,0x19,0xbe,0x0a,0x4a,0x03,0xbe,0x5b,0xd1,0x95,0xbe,0x8e,0x1f,0x10,0x3e,0x46,0x36,0x0e,0xbe,0xe9,0x90,0xc7,0x3e,0x80,0x65,0x32,0xbe,0x27,0x9b,0xa0,0x3e,0x19,0x6e,0xd3,0x3e,0x88,0x1c,0x85,0xbe,0x39,0xd9,0xa0,0x3e,0xa2,0x9b,0x30,0x3e,0x22,0xcb,0x0d,0xbe,0xbc,0xdc,0xf6,0x3d,0xf5,0x3e,0xdd,0x3e,0xdd,0x5d,0x95,0x3e,0x14,0xd4,0xc5,0xbd,0x28,0x93,0x0c,0xbd,0x46,0x3d,0xbb,0xbe,0x48,0x2a,0xa0,0xbe,0x06,0x48,0x11,0x3e,0x88,0x3e,0x5a,0x3d,0x74,0x51,0xc1,0xbe,0x85,0x72,0x8c,0x3e,0x94,0x92,0xdb,0x3d,0xac,0x61,0x33,0xbe,0xc2,0x9c,0xc6,0xbe,0x89,0xcf,0xcd,0xbe,0x8c,0x55,0x92,0x3d,0xec,0x38,0x70,0xbe,0x46,0x40,0xbf,0xbe,0x73,0xc9,0x88,0x3e,0x3c,0x98,0xf1,0xbd,0x42,0x80,0x57,0x3e,0x8c,0x56,0x9f,0xbd,0x92,0xc6,0xc1,0xbe,0xd8,0x14,0x7a,0xbe,0x79,0x41,0x9f,0x3e,0x5f,0x6d,0xd9,0x3e,0xf8,0x00,0x21,0xbd,0xb5,0xdd,0x8d,0x3e,0x6d,0x17,0xa6,0xbe,0x00,0x72,0x28,0xbd,0x52,0xe8,0x79,0x3e,0x48,0xd5,0x40,0x3d,0x50,0x3a,0x65,0xbd,0x3c,0x4a,0x54,0xbe,0x2a,0x76,0x18,0xbe,0x60,0x46,0xd2,0xbc,0x60,0x80,0x42,0xbe,0x59,0x7a,0xa5,0x3e,0x44,0x3b,0xe3,0x3d,0x7d,0xbb,0xa7,0xbe,0x41,0x2c,0xdd,0xbe,0x86,0xf1,0xd9,0x3e,0x55,0x8c,0xad,0xbd,0xdc,0x01,0x03,0xbd,0x88,0x41,0x96,0x3e,0x91,0x50,0xd2,0x3e,0xaf,0x2c,0xc0,0xbe,0x53,0x70,0x6e,0xbd,0x43,0x73,0xa3,0xbe,0xc5,0x28,0x77,0x3e,0xe1,0xec,0xa4,0x3e,0xe6,0x81,0x30,0x3e,0xba,0xf6,0x78,0x3e,0x94,0x02,0x16,0x3e,0xd6,0xe5,0x2e,0x3e,0x5c,0x33,0x0b,0xbe,0x5e,0xfe,0xff,0xff,0x04,0x00,0x00,0x00,0x00,0x01,0x00,0x00,0x5f,0x17,0x24,0x3f,0x5a,0x14,0x8a,0xbe,0xca,0x07,0x93,0xbe,0x00,0xb9,0xad,0x3e,0xa4,0xdf,0xe0,0xbd,0xb4,0xe8,0x11,0x3f,0x48,0x02,0xf9,0x3e,0xb2,0x80,0x53,0xbc,0x19,0xc7,0xb6,0xbe,0x09,0xb8,0xc4,0xbd,0xe0,0x7b,0xa5,0x3e,0xd0,0x65,0xbc,0x3e,0xb0,0x1e,0xae,0xbe,0x64,0x7b,0xed,0xbe,0x48,0x2a,0x24,0x3e,0x18,0x9e,0x8a,0xbe,0x58,0xce,0xa6,0xbe,0x6a,0x6b,0xf5,0x3e,0x82,0xe2,0xc0,0xbe,0x20,0xdb,0x9b,0xbc,0xc7,0x15,0x3b,0x3c,0x79,0x95,0xb9,0xbe,0xfd,0xc3,0xbc,0xbe,0xcd,0xf1,0x83,0x3e,0xde,0x37,0x42,0xbe,0x7a,0x2d,0x27,0xbe,0x3e,0xff,0xa5,0xbe,0x4e,0x56,0x1f,0xbe,0xc4,0x42,0x50,0xbe,0x30,0xf4,0xb3,0x3d,0x5c,0x65,0xfd,0x3e,0x10,0x97,0xe8,0x3c,0x5b,0x6d,0xf1,0xbe,0xd7,0x77,0x4a,0x3e,0x4b,0xdf,0xf8,0x3e,0x48,0xf7,0x7d,0x3e,0x0a,0x5d,0xf6,0xbe,0x1f,0x63,0xc4,0xbe,0xbb,0xbb,0x00,0xbf,0x03,0x07,0x07,0xbe,0x0a,0x4f,0xcf,0xbd,0x30,0xad,0x66,0x3d,0x67,0x41,0xf1,0xbe,0xa8,0x2f,0xa1,0xbe,0x94,0xe6,0xb8,0xbe,0xd6,0xa4,0xbe,0x3e,0xf8,0xea,0x51,0xbd,0xa9,0xba,0xfa,0xbe,0x91,0xfa,0xb1,0x3e,0xb8,0xc3,0x88,0xbe,0xae,0xea,0xef,0xbe,0x78,0x85,0x08,0x3f,0x35,0x65,0xbc,0x3e,0x17,0x4b,0xf2,0xbd,0x80,0x90,0xb9,0xbc,0x98,0xdf,0xf1,0x3e,0x42,0x44,0xf6,0xbd,0xb0,0x0a,0x29,0xbe,0xf0,0x80,0xa5,0xbd,0xc8,0x00,0xa4,0xbe,0x4c,0x01,0xd0,0xbe,0x56,0xbe,0x07,0xbf,0xe0,0x4e,0x1b,0x3e,0xc5,0xda,0xe0,0xbd,0x1c,0xfa,0xff,0xff,0x20,0xfa,0xff,0xff,0x0f,0x00,0x00,0x00,0x4d,0x4c,0x49,0x52,0x20,0x43,0x6f,0x6e,0x76,0x65,0x72,0x74,0x65,0x64,0x2e,0x00,0x01,0x00,0x00,0x00,0x14,0x00,0x00,0x00,0x00,0x00,0x0e,0x00,0x18,0x00,0x14,0x00,0x10,0x00,0x0c,0x00,0x08,0x00,0x04,0x00,0x0e,0x00,0x00,0x00,0x14,0x00,0x00,0x00,0x1c,0x00,0x00,0x00,0x24,0x01,0x00,0x00,0x28,0x01,0x00,0x00,0x2c,0x01,0x00,0x00,0x04,0x00,0x00,0x00,0x6d,0x61,0x69,0x6e,0x00,0x00,0x00,0x00,0x04,0x00,0x00,0x00,0xcc,0x00,0x00,0x00,0x84,0x00,0x00,0x00,0x50,0x00,0x00,0x00,0x14,0x00,0x00,0x00,0x00,0x00,0x0e,0x00,0x1a,0x00,0x14,0x00,0x10,0x00,0x0c,0x00,0x0b,0x00,0x04,0x00,0x0e,0x00,0x00,0x00,0x1c,0x00,0x00,0x00,0x00,0x00,0x00,0x09,0x1c,0x00,0x00,0x00,0x20,0x00,0x00,0x00,0x01,0x00,0x00,0x00,0x00,0x00,0x06,0x00,0x08,0x00,0x04,0x00,0x06,0x00,0x00,0x00,0x00,0x00,0x80,0x3f,0x01,0x00,0x00,0x00,0x0a,0x00,0x00,0x00,0x01,0x00,0x00,0x00,0x09,0x00,0x00,0x00,0x9a,0xff,0xff,0xff,0x10,0x00,0x00,0x00,0x00,0x00,0x00,0x08,0x0c,0x00,0x00,0x00,0x10,0x00,0x00,0x00,0xe4,0xfa,0xff,0xff,0x01,0x00,0x00,0x00,0x09,0x00,0x00,0x00,0x03,0x00,0x00,0x00,0x08,0x00,0x00,0x00,0x01,0x00,0x00,0x00,0x04,0x00,0x00,0x00,0xca,0xff,0xff,0xff,0x10,0x00,0x00,0x00,0x00,0x00,0x00,0x08,0x10,0x00,0x00,0x00,0x14,0x00,0x00,0x00,0xba,0xff,0xff,0xff,0x00,0x00,0x00,0x01,0x01,0x00,0x00,0x00,0x08,0x00,0x00,0x00,0x03,0x00,0x00,0x00,0x07,0x00,0x00,0x00,0x02,0x00,0x00,0x00,0x03,0x00,0x00,0x00,0x00,0x00,0x0e,0x00,0x16,0x00,0x00,0x00,0x10,0x00,0x0c,0x00,0x0b,0x00,0x04,0x00,0x0e,0x00,0x00,0x00,0x18,0x00,0x00,0x00,0x00,0x00,0x00,0x08,0x18,0x00,0x00,0x00,0x1c,0x00,0x00,0x00,0x00,0x00,0x06,0x00,0x08,0x00,0x07,0x00,0x06,0x00,0x00,0x00,0x00,0x00,0x00,0x01,0x01,0x00,0x00,0x00,0x07,0x00,0x00,0x00,0x03,0x00,0x00,0x00,0x00,0x00,0x00,0x00,0x06,0x00,0x00,0x00,0x05,0x00,0x00,0x00,0x01,0x00,0x00,0x00,0x0a,0x00,0x00,0x00,0x01,0x00,0x00,0x00,0x00,0x00,0x00,0x00,0x0b,0x00,0x00,0x00,0x44,0x04,0x00,0x00,0xec,0x03,0x00,0x00,0x94,0x03,0x00,0x00,0x34,0x03,0x00,0x00,0xd4,0x02,0x00,0x00,0x78,0x02,0x00,0x00,0x28,0x02,0x00,0x00,0x88,0x01,0x00,0x00,0xe4,0x00,0x00,0x00,0x60,0x00,0x00,0x00,0x04,0x00,0x00,0x00,0xfe,0xfb,0xff,0xff,0x00,0x00,0x00,0x01,0x14,0x00,0x00,0x00,0x1c,0x00,0x00,0x00,0x1c,0x00,0x00,0x00,0x0b,0x00,0x00,0x00,0x34,0x00,0x00,0x00,0x02,0x00,0x00,0x00,0xff,0xff,0xff,0xff,0x04,0x00,0x00,0x00,0xe8,0xfb,0xff,0xff,0x1b,0x00,0x00,0x00,0x53,0x74,0x61,0x74,0x65,0x66,0x75,0x6c,0x50,0x61,0x72,0x74,0x69,0x74,0x69,0x6f,0x6e,0x65,0x64,0x43,0x61,0x6c,0x6c,0x5f,0x31,0x3a,0x30,0x00,0x02,0x00,0x00,0x00,0x01,0x00,0x00,0x00,0x04,0x00,0x00,0x00,0x56,0xfc,0xff,0xff,0x00,0x00,0x00,0x01,0x14,0x00,0x00,0x00,0x1c,0x00,0x00,0x00,0x1c,0x00,0x00,0x00,0x0a,0x00,0x00,0x00,0x5c,0x00,0x00,0x00,0x02,0x00,0x00,0x00,0xff,0xff,0xff,0xff,0x04,0x00,0x00,0x00,0x40,0xfc,0xff,0xff,0x42,0x00,0x00,0x00,0x73,0x65,0x71,0x75,0x65,0x6e,0x74,0x69,0x61,0x6c,0x5f,0x33,0x5f,0x31,0x2f,0x64,0x65,0x6e,0x73,0x65,0x5f,0x31,0x31,0x5f,0x31,0x2f,0x4d,0x61,0x74,0x4d,0x75,0x6c,0x3b,0x73,0x65,0x71,0x75,0x65,0x6e,0x74,0x69,0x61,0x6c,0x5f,0x33,0x5f,0x31,0x2f,0x64,0x65,0x6e,0x73,0x65,0x5f,0x31,0x31,0x5f,0x31,0x2f,0x42,0x69,0x61,0x73,0x41,0x64,0x64,0x00,0x00,0x02,0x00,0x00,0x00,0x01,0x00,0x00,0x00,0x04,0x00,0x00,0x00,0xd6,0xfc,0xff,0xff,0x00,0x00,0x00,0x01,0x14,0x00,0x00,0x00,0x1c,0x00,0x00,0x00,0x1c,0x00,0x00,0x00,0x09,0x00,0x00,0x00,0x7c,0x00,0x00,0x00,0x02,0x00,0x00,0x00,0xff,0xff,0xff,0xff,0x10,0x00,0x00,0x00,0xc0,0xfc,0xff,0xff,0x61,0x00,0x00,0x00,0x73,0x65,0x71,0x75,0x65,0x6e,0x74,0x69,0x61,0x6c,0x5f,0x33,0x5f,0x31,0x2f,0x64,0x65,0x6e,0x73,0x65,0x5f,0x31,0x30,0x5f,0x31,0x2f,0x4d,0x61,0x74,0x4d,0x75,0x6c,0x3b,0x73,0x65,0x71,0x75,0x65,0x6e,0x74,0x69,0x61,0x6c,0x5f,0x33,0x5f,0x31,0x2f,0x64,0x65,0x6e,0x73,0x65,0x5f,0x31,0x30,0x5f,0x31,0x2f,0x52,0x65,0x6c,0x75,0x3b,0x73,0x65,0x71,0x75,0x65,0x6e,0x74,0x69,0x61,0x6c,0x5f,0x33,0x5f,0x31,0x2f,0x64,0x65,0x6e,0x73,0x65,0x5f,0x31,0x30,0x5f,0x31,0x2f,0x42,0x69,0x61,0x73,0x41,0x64,0x64,0x00,0x00,0x00,0x02,0x00,0x00,0x00,0x01,0x00,0x00,0x00,0x10,0x00,0x00,0x00,0x76,0xfd,0xff,0xff,0x00,0x00,0x00,0x01,0x14,0x00,0x00,0x00,0x1c,0x00,0x00,0x00,0x1c,0x00,0x00,0x00,0x08,0x00,0x00,0x00,0x78,0x00,0x00,0x00,0x02,0x00,0x00,0x00,0xff,0xff,0xff,0xff,0x10,0x00,0x00,0x00,0x60,0xfd,0xff,0xff,0x5e,0x00,0x00,0x00,0x73,0x65,0x71,0x75,0x65,0x6e,0x74,0x69,0x61,0x6c,0x5f,0x33,0x5f,0x31,0x2f,0x64,0x65,0x6e,0x73,0x65,0x5f,0x39,0x5f,0x31,0x2f,0x4d,0x61,0x74,0x4d,0x75,0x6c,0x3b,0x73,0x65,0x71,0x75,0x65,0x6e,0x74,0x69,0x61,0x6c,0x5f,0x33,0x5f,0x31,0x2f,0x64,0x65,0x6e,0x73,0x65,0x5f,0x39,0x5f,0x31,0x2f,0x52,0x65,0x6c,0x75,0x3b,0x73,0x65,0x71,0x75,0x65,0x6e,0x74,0x69,0x61,0x6c,0x5f,0x33,0x5f,0x31,0x2f,0x64,0x65,0x6e,0x73,0x65,0x5f,0x39,0x5f,0x31,0x2f,0x42,0x69,0x61,0x73,0x41,0x64,0x64,0x00,0x00,0x02,0x00,0x00,0x00,0x01,0x00,0x00,0x00,0x10,0x00,0x00,0x00,0x66,0xfe,0xff,0xff,0x00,0x00,0x00,0x01,0x10,0x00,0x00,0x00,0x10,0x00,0x00,0x00,0x07,0x00,0x00,0x00,0x2c,0x00,0x00,0x00,0xec,0xfd,0xff,0xff,0x1f,0x00,0x00,0x00,0x73,0x65,0x71,0x75,0x65,0x6e,0x74,0x69,0x61,0x6c,0x5f,0x33,0x5f,0x31,0x2f,0x64,0x65,0x6e,0x73,0x65,0x5f,0x39,0x5f,0x31,0x2f,0x4d,0x61,0x74,0x4d,0x75,0x6c,0x00,0x02,0x00,0x00,0x00,0x10,0x00,0x00,0x00,0x02,0x00,0x00,0x00,0xb2,0xfe,0xff,0xff,0x00,0x00,0x00,0x01,0x10,0x00,0x00,0x00,0x10,0x00,0x00,0x00,0x06,0x00,0x00,0x00,0x3c,0x00,0x00,0x00,0x38,0xfe,0xff,0xff,0x2f,0x00,0x00,0x00,0x73,0x65,0x71,0x75,0x65,0x6e,0x74,0x69,0x61,0x6c,0x5f,0x33,0x5f,0x31,0x2f,0x64,0x65,0x6e,0x73,0x65,0x5f,0x39,0x5f,0x31,0x2f,0x42,0x69,0x61,0x73,0x41,0x64,0x64,0x2f,0x52,0x65,0x61,0x64,0x56,0x61,0x72,0x69,0x61,0x62,0x6c,0x65,0x4f,0x70,0x00,0x01,0x00,0x00,0x00,0x10,0x00,0x00,0x00,0x0a,0xff,0xff,0xff,0x00,0x00,0x00,0x01,0x10,0x00,0x00,0x00,0x10,0x00,0x00,0x00,0x05,0x00,0x00,0x00,0x40,0x00,0x00,0x00,0x90,0xfe,0xff,0xff,0x30,0x00,0x00,0x00,0x73,0x65,0x71,0x75,0x65,0x6e,0x74,0x69,0x61,0x6c,0x5f,0x33,0x5f,0x31,0x2f,0x64,0x65,0x6e,0x73,0x65,0x5f,0x31,0x31,0x5f,0x31,0x2f,0x42,0x69,0x61,0x73,0x41,0x64,0x64,0x2f,0x52,0x65,0x61,0x64,0x56,0x61,0x72,0x69,0x61,0x62,0x6c,0x65,0x4f,0x70,0x00,0x00,0x00,0x00,0x01,0x00,0x00,0x00,0x04,0x00,0x00,0x00,0x66,0xff,0xff,0xff,0x00,0x00,0x00,0x01,0x10,0x00,0x00,0x00,0x10,0x00,0x00,0x00,0x04,0x00,0x00,0x00,0x40,0x00,0x00,0x00,0xec,0xfe,0xff,0xff,0x30,0x00,0x00,0x00,0x73,0x65,0x71,0x75,0x65,0x6e,0x74,0x69,0x61,0x6c,0x5f,0x33,0x5f,0x31,0x2f,0x64,0x65,0x6e,0x73,0x65,0x5f,0x31,0x30,0x5f,0x31,0x2f,0x42,0x69,0x61,0x73,0x41,0x64,0x64,0x2f,0x52,0x65,0x61,0x64,0x56,0x61,0x72,0x69,0x61,0x62,0x6c,0x65,0x4f,0x70,0x00,0x00,0x00,0x00,0x01,0x00,0x00,0x00,0x10,0x00,0x00,0x00,0xc2,0xff,0xff,0xff,0x00,0x00,0x00,0x01,0x10,0x00,0x00,0x00,0x10,0x00,0x00,0x00,0x03,0x00,0x00,0x00,0x1c,0x00,0x00,0x00,0x48,0xff,0xff,0xff,0x0f,0x00,0x00,0x00,0x61,0x72,0x69,0x74,0x68,0x2e,0x63,0x6f,0x6e,0x73,0x74,0x61,0x6e,0x74,0x31,0x00,0x02,0x00,0x00,0x00,0x10,0x00,0x00,0x00,0x10,0x00,0x00,0x00,0x00,0x00,0x16,0x00,0x18,0x00,0x14,0x00,0x00,0x00,0x10,0x00,0x0c,0x00,0x08,0x00,0x00,0x00,0x00,0x00,0x00,0x00,0x07,0x00,0x16,0x00,0x00,0x00,0x00,0x00,0x00,0x01,0x10,0x00,0x00,0x00,0x10,0x00,0x00,0x00,0x02,0x00,0x00,0x00,0x1c,0x00,0x00,0x00,0x9c,0xff,0xff,0xff,0x0e,0x00,0x00,0x00,0x61,0x72,0x69,0x74,0x68,0x2e,0x63,0x6f,0x6e,0x73,0x74,0x61,0x6e,0x74,0x00,0x00,0x02,0x00,0x00,0x00,0x04,0x00,0x00,0x00,0x10,0x00,0x00,0x00,0x00,0x00,0x16,0x00,0x1c,0x00,0x18,0x00,0x00,0x00,0x14,0x00,0x10,0x00,0x0c,0x00,0x00,0x00,0x00,0x00,0x08,0x00,0x07,0x00,0x16,0x00,0x00,0x00,0x00,0x00,0x00,0x01,0x14,0x00,0x00,0x00,0x20,0x00,0x00,0x00,0x20,0x00,0x00,0x00,0x01,0x00,0x00,0x00,0x40,0x00,0x00,0x00,0x02,0x00,0x00,0x00,0xff,0xff,0xff,0xff,0x02,0x00,0x00,0x00,0x04,0x00,0x04,0x00,0x04,0x00,0x00,0x00,0x21,0x00,0x00,0x00,0x73,0x65,0x72,0x76,0x69,0x6e,0x67,0x5f,0x64,0x65,0x66,0x61,0x75,0x6c,0x74,0x5f,0x6b,0x65,0x72,0x61,0x73,0x5f,0x74,0x65,0x6e,0x73,0x6f,0x72,0x5f,0x31,0x32,0x3a,0x30,0x00,0x00,0x00,0x02,0x00,0x00,0x00,0x01,0x00,0x00,0x00,0x02,0x00,0x00,0x00,0x02,0x00,0x00,0x00,0x20,0x00,0x00,0x00,0x04,0x00,0x00,0x00,0xf4,0xff,0xff,0xff,0x19,0x00,0x00,0x00,0x00,0x00,0x00,0x19,0x0c,0x00,0x0c,0x00,0x0b,0x00,0x00,0x00,0x00,0x00,0x04,0x00,0x0c,0x00,0x00,0x00,0x09,0x00,0x00,0x00,0x00,0x00,0x00,0x09
};

const int imu_model_tflite_len = 3732;

#endif // IMU_MODEL_H
